// Auto-generated from C:/#PROJECT/Hypoxemia and stress monitor/hypoxemia-and-stress-monitor\hypoxemia_model.tflite
unsigned char hypoxemia_model_tflite[] = {
  0x1c, 0x00, 0x00, 0x00, 0x54, 0x46, 0x4c, 0x33, 0x14, 0x00, 0x20, 0x00, 
  0x1c, 0x00, 0x18, 0x00, 0x14, 0x00, 0x10, 0x00, 0x0c, 0x00, 0x00, 0x00, 
  0x08, 0x00, 0x04, 0x00, 0x14, 0x00, 0x00, 0x00, 0x1c, 0x00, 0x00, 0x00, 
  0x98, 0x00, 0x00, 0x00, 0xf0, 0x00, 0x00, 0x00, 0x00, 0x06, 0x00, 0x00, 
  0x10, 0x06, 0x00, 0x00, 0xd4, 0x0b, 0x00, 0x00, 0x03, 0x00, 0x00, 0x00, 
  0x01, 0x00, 0x00, 0x00, 0x10, 0x00, 0x00, 0x00, 0x00, 0x00, 0x0a, 0x00, 
  0x10, 0x00, 0x0c, 0x00, 0x08, 0x00, 0x04, 0x00, 0x0a, 0x00, 0x00, 0x00, 
  0x0c, 0x00, 0x00, 0x00, 0x1c, 0x00, 0x00, 0x00, 0x3c, 0x00, 0x00, 0x00, 
  0x0f, 0x00, 0x00, 0x00, 0x73, 0x65, 0x72, 0x76, 0x69, 0x6e, 0x67, 0x5f, 
  0x64, 0x65, 0x66, 0x61, 0x75, 0x6c, 0x74, 0x00, 0x01, 0x00, 0x00, 0x00, 
  0x04, 0x00, 0x00, 0x00, 0x90, 0xff, 0xff, 0xff, 0x0a, 0x00, 0x00, 0x00, 
  0x04, 0x00, 0x00, 0x00, 0x08, 0x00, 0x00, 0x00, 0x6f, 0x75, 0x74, 0x70, 
  0x75, 0x74, 0x5f, 0x30, 0x00, 0x00, 0x00, 0x00, 0x01, 0x00, 0x00, 0x00, 
  0x04, 0x00, 0x00, 0x00, 0xe6, 0xf9, 0xff, 0xff, 0x04, 0x00, 0x00, 0x00, 
  0x0e, 0x00, 0x00, 0x00, 0x6b, 0x65, 0x72, 0x61, 0x73, 0x5f, 0x74, 0x65, 
  0x6e, 0x73, 0x6f, 0x72, 0x5f, 0x34, 0x00, 0x00, 0x02, 0x00, 0x00, 0x00, 
  0x34, 0x00, 0x00, 0x00, 0x04, 0x00, 0x00, 0x00, 0xdc, 0xff, 0xff, 0xff, 
  0x0d, 0x00, 0x00, 0x00, 0x04, 0x00, 0x00, 0x00, 0x13, 0x00, 0x00, 0x00, 
  0x43, 0x4f, 0x4e, 0x56, 0x45, 0x52, 0x53, 0x49, 0x4f, 0x4e, 0x5f, 0x4d, 
  0x45, 0x54, 0x41, 0x44, 0x41, 0x54, 0x41, 0x00, 0x08, 0x00, 0x0c, 0x00, 
  0x08, 0x00, 0x04, 0x00, 0x08, 0x00, 0x00, 0x00, 0x0c, 0x00, 0x00, 0x00, 
  0x04, 0x00, 0x00, 0x00, 0x13, 0x00, 0x00, 0x00, 0x6d, 0x69, 0x6e, 0x5f, 
  0x72, 0x75, 0x6e, 0x74, 0x69, 0x6d, 0x65, 0x5f, 0x76, 0x65, 0x72, 0x73, 
  0x69, 0x6f, 0x6e, 0x00, 0x0e, 0x00, 0x00, 0x00, 0x0c, 0x05, 0x00, 0x00, 
  0x04, 0x05, 0x00, 0x00, 0xd4, 0x04, 0x00, 0x00, 0xb4, 0x04, 0x00, 0x00, 
  0x24, 0x04, 0x00, 0x00, 0x14, 0x02, 0x00, 0x00, 0x04, 0x01, 0x00, 0x00, 
  0xb4, 0x00, 0x00, 0x00, 0xac, 0x00, 0x00, 0x00, 0xa4, 0x00, 0x00, 0x00, 
  0x9c, 0x00, 0x00, 0x00, 0x94, 0x00, 0x00, 0x00, 0x74, 0x00, 0x00, 0x00, 
  0x04, 0x00, 0x00, 0x00, 0x9a, 0xfa, 0xff, 0xff, 0x04, 0x00, 0x00, 0x00, 
  0x60, 0x00, 0x00, 0x00, 0x10, 0x00, 0x00, 0x00, 0x00, 0x00, 0x00, 0x00, 
  0x08, 0x00, 0x0e, 0x00, 0x08, 0x00, 0x04, 0x00, 0x08, 0x00, 0x00, 0x00, 
  0x10, 0x00, 0x00, 0x00, 0x24, 0x00, 0x00, 0x00, 0x00, 0x00, 0x06, 0x00, 
  0x08, 0x00, 0x04, 0x00, 0x06, 0x00, 0x00, 0x00, 0x04, 0x00, 0x00, 0x00, 
  0x00, 0x00, 0x00, 0x00, 0x0c, 0x00, 0x18, 0x00, 0x14, 0x00, 0x10, 0x00, 
  0x0c, 0x00, 0x04, 0x00, 0x0c, 0x00, 0x00, 0x00, 0x7f, 0x1c, 0x9d, 0xf2, 
  0xce, 0xd3, 0xc1, 0xb2, 0x02, 0x00, 0x00, 0x00, 0x02, 0x00, 0x00, 0x00, 
  0x04, 0x00, 0x00, 0x00, 0x06, 0x00, 0x00, 0x00, 0x32, 0x2e, 0x32, 0x30, 
  0x2e, 0x30, 0x00, 0x00, 0x06, 0xfb, 0xff, 0xff, 0x04, 0x00, 0x00, 0x00, 
  0x10, 0x00, 0x00, 0x00, 0x31, 0x2e, 0x35, 0x2e, 0x30, 0x00, 0x00, 0x00, 
  0x00, 0x00, 0x00, 0x00, 0x00, 0x00, 0x00, 0x00, 0x10, 0xf6, 0xff, 0xff, 
  0x14, 0xf6, 0xff, 0xff, 0x18, 0xf6, 0xff, 0xff, 0x1c, 0xf6, 0xff, 0xff, 
  0x32, 0xfb, 0xff, 0xff, 0x04, 0x00, 0x00, 0x00, 0x40, 0x00, 0x00, 0x00, 
  0x11, 0x57, 0x84, 0x3f, 0xf7, 0x0e, 0x24, 0x3f, 0xe9, 0xe4, 0x53, 0xbe, 
  0x49, 0xee, 0xa3, 0xbe, 0x70, 0xfd, 0xd6, 0x3d, 0x8c, 0xff, 0x70, 0x3e, 
  0xff, 0x7f, 0x69, 0xbd, 0xdc, 0x66, 0xa1, 0xbe, 0x86, 0xf3, 0x86, 0x3f, 
  0x77, 0x62, 0x9e, 0x3f, 0xa9, 0xe3, 0x80, 0x3f, 0x84, 0xb9, 0x80, 0x3e, 
  0x31, 0xcb, 0xbe, 0x3f, 0x0e, 0x70, 0xa6, 0x3f, 0x34, 0x89, 0xfc, 0xbe, 
  0xbe, 0x69, 0x55, 0xbe, 0x7e, 0xfb, 0xff, 0xff, 0x04, 0x00, 0x00, 0x00, 
  0x00, 0x01, 0x00, 0x00, 0xd4, 0x99, 0x58, 0x3e, 0x2b, 0x20, 0x07, 0xbd, 
  0x90, 0x5e, 0x8b, 0xbf, 0x30, 0x35, 0xdf, 0x3b, 0x18, 0xc4, 0xac, 0xbe, 
  0x31, 0xe6, 0xd4, 0x3b, 0xa2, 0x7b, 0xc6, 0x3f, 0x73, 0xde, 0xe7, 0x3d, 
  0x1c, 0xdd, 0xc3, 0x3c, 0x5b, 0x3b, 0x03, 0xbd, 0x84, 0xa3, 0x11, 0xc0, 
  0x5d, 0x6d, 0xe4, 0xba, 0xb9, 0x42, 0xc6, 0x3e, 0x1a, 0x8b, 0x11, 0x3d, 
  0x71, 0x91, 0xa1, 0xbf, 0x3a, 0x05, 0x6c, 0xbe, 0xa8, 0x3a, 0x46, 0xbe, 
  0x56, 0x8e, 0x57, 0x3e, 0x87, 0xac, 0x06, 0xc0, 0x22, 0x85, 0xf4, 0x3d, 
  0xd0, 0x3f, 0x92, 0x3d, 0xf3, 0x1f, 0x23, 0x3d, 0x49, 0x81, 0xe0, 0x3f, 
  0x74, 0xf1, 0x61, 0x3c, 0x2d, 0x50, 0x5e, 0x3f, 0x5c, 0xa2, 0x1b, 0xbd, 
  0xdf, 0x7f, 0xde, 0x3e, 0x8a, 0x0e, 0x1c, 0xbc, 0x8a, 0x1f, 0x81, 0x3e, 
  0xaa, 0x2a, 0x35, 0xbe, 0x82, 0xb6, 0xa3, 0x3f, 0xb1, 0xa5, 0x47, 0xbe, 
  0x48, 0xb5, 0x1b, 0x3e, 0xb3, 0x4c, 0x4a, 0x3d, 0xf5, 0xb5, 0x85, 0x3f, 
  0x54, 0xca, 0x3b, 0xbe, 0xee, 0xf1, 0x81, 0xbe, 0x73, 0x9d, 0xdd, 0xbe, 
  0x94, 0x4a, 0x40, 0xbf, 0xc2, 0xa3, 0x47, 0xbe, 0x3d, 0x92, 0x2c, 0xbd, 
  0x1b, 0x7f, 0x84, 0xbd, 0x15, 0x41, 0x60, 0xbf, 0x15, 0x84, 0x74, 0xbd, 
  0xf7, 0x1a, 0x9e, 0xbb, 0x37, 0xdd, 0xf7, 0xbb, 0x9e, 0x5d, 0xd0, 0x3f, 
  0xd5, 0x96, 0x95, 0xbb, 0x53, 0x24, 0xef, 0x3d, 0x82, 0x0b, 0x5a, 0x3e, 
  0x45, 0x6d, 0x66, 0x3f, 0xef, 0x35, 0xff, 0x3d, 0xe3, 0xd6, 0xfd, 0x3d, 
  0xf2, 0x4d, 0x0e, 0x3e, 0x2d, 0x38, 0x3b, 0xbf, 0xd4, 0x96, 0xee, 0x3d, 
  0x93, 0x87, 0x87, 0xbe, 0x1d, 0x21, 0x87, 0xbc, 0x62, 0x71, 0x95, 0x3f, 
  0xf4, 0x8d, 0x96, 0x3d, 0xe2, 0x27, 0x7d, 0xbb, 0x1d, 0x57, 0x3d, 0x3c, 
  0x01, 0x20, 0xf9, 0xbf, 0x28, 0x3e, 0x7a, 0xba, 0x8a, 0xfc, 0xff, 0xff, 
  0x04, 0x00, 0x00, 0x00, 0x00, 0x02, 0x00, 0x00, 0xb3, 0xfd, 0x26, 0x3e, 
  0x47, 0xa9, 0x26, 0x3f, 0xa5, 0x1e, 0x9f, 0xbf, 0x8f, 0xd3, 0x07, 0xbf, 
  0x7c, 0xb6, 0x6a, 0xbb, 0xfe, 0x0e, 0x8b, 0x3e, 0x43, 0xfc, 0x25, 0x3f, 
  0xa9, 0xe7, 0x78, 0xbf, 0x50, 0x7f, 0x5b, 0x3f, 0x06, 0x15, 0x1c, 0x3f, 
  0x83, 0xec, 0x59, 0x3e, 0x9b, 0x70, 0xbb, 0x3d, 0xb6, 0xa6, 0x8f, 0x3f, 
  0x37, 0xac, 0x6c, 0x3d, 0x0b, 0xa1, 0xca, 0xbc, 0xcc, 0xf8, 0xad, 0xbf, 
  0x56, 0x36, 0xbb, 0xbf, 0x70, 0x39, 0x46, 0x3f, 0xd4, 0x2c, 0x81, 0x3e, 
  0x44, 0x3a, 0x8c, 0xbe, 0x7e, 0xaf, 0x5a, 0xbe, 0xcf, 0x02, 0x7d, 0x3e, 
  0xba, 0x1a, 0xd1, 0x3e, 0x67, 0xd8, 0x16, 0x3f, 0x4a, 0x0b, 0x0b, 0x3e, 
  0x2e, 0x1e, 0x96, 0xbe, 0x6d, 0xc4, 0xa3, 0xbf, 0x07, 0x06, 0x21, 0x3f, 
  0x04, 0x84, 0xec, 0xbd, 0x96, 0x9a, 0xb5, 0xbf, 0x97, 0x5e, 0x72, 0x3f, 
  0x45, 0x81, 0x34, 0x3e, 0xcd, 0x28, 0xc0, 0xbe, 0xc1, 0x1d, 0xb3, 0x3f, 
  0x8e, 0x72, 0x3b, 0xc0, 0xf3, 0xc3, 0x9c, 0x3d, 0x42, 0xfd, 0x8e, 0xbf, 
  0x66, 0xe5, 0x9e, 0x3f, 0xc3, 0xe5, 0x29, 0x3f, 0x8e, 0xd4, 0x89, 0x3f, 
  0x39, 0x39, 0xfa, 0x3e, 0x82, 0x34, 0x9c, 0x3d, 0x7c, 0x72, 0x48, 0xbf, 
  0x12, 0x6c, 0x0b, 0x40, 0x14, 0x89, 0x8f, 0x3f, 0xb9, 0x30, 0xd3, 0xbe, 
  0xe8, 0xe1, 0xab, 0x3e, 0xc1, 0x61, 0x53, 0xc0, 0x88, 0x9f, 0x3c, 0x3f, 
  0x96, 0xae, 0x93, 0xbf, 0x1c, 0x9e, 0x2d, 0x40, 0x6f, 0xdb, 0x78, 0x3f, 
  0x0b, 0xb4, 0xe7, 0x3f, 0xf5, 0x8c, 0xe9, 0xbf, 0xdc, 0x4d, 0xea, 0x3e, 
  0x4d, 0x63, 0x22, 0x3f, 0x1f, 0x30, 0x63, 0xbf, 0x0e, 0x11, 0x09, 0x3f, 
  0xb5, 0x01, 0x61, 0x3f, 0xf8, 0x93, 0x72, 0xc0, 0x51, 0x98, 0xd0, 0xbe, 
  0x79, 0x19, 0xaa, 0x3e, 0x7f, 0x06, 0x3e, 0xbc, 0x9b, 0xdd, 0x34, 0x40, 
  0xc3, 0x1a, 0x06, 0x3f, 0xc5, 0xad, 0x84, 0x3e, 0xb8, 0xcf, 0x4c, 0x3f, 
  0xbb, 0x43, 0x2a, 0x3f, 0x34, 0x84, 0x3a, 0x3f, 0x3d, 0xc6, 0x0c, 0x3f, 
  0x93, 0x7e, 0x13, 0x3e, 0xb9, 0xed, 0x5b, 0x3d, 0x84, 0xde, 0x82, 0xbf, 
  0xd6, 0x06, 0x9d, 0x3e, 0xde, 0x5b, 0x5a, 0xbe, 0x61, 0xcd, 0x86, 0x3e, 
  0x49, 0x48, 0x13, 0xbf, 0xfa, 0x13, 0xf7, 0x3e, 0x1f, 0x5e, 0xb1, 0xbe, 
  0xc8, 0x85, 0x25, 0x3f, 0xf0, 0x39, 0x05, 0x3f, 0x9c, 0xc8, 0xa7, 0xbe, 
  0xdb, 0x77, 0xd7, 0xbf, 0xf7, 0xd8, 0x10, 0xbf, 0xc1, 0xd9, 0x11, 0xbf, 
  0xf6, 0xfe, 0xea, 0xbe, 0xa5, 0x33, 0x55, 0xbe, 0x4b, 0xe7, 0x4d, 0xbf, 
  0xd5, 0x25, 0xa7, 0x3e, 0xda, 0x34, 0x92, 0x3f, 0xa8, 0xd8, 0x9b, 0x3f, 
  0xbb, 0xa3, 0x19, 0xbf, 0xfb, 0x6d, 0x58, 0x3f, 0x54, 0x76, 0x99, 0x3f, 
  0xe2, 0xee, 0x2b, 0xbf, 0x36, 0x05, 0x58, 0xbf, 0xd3, 0x17, 0x97, 0xbe, 
  0x57, 0x18, 0xde, 0x3f, 0xc3, 0xf9, 0x1e, 0xbf, 0xf6, 0x46, 0x17, 0xbf, 
  0x91, 0xc2, 0x93, 0xbe, 0xf7, 0xb8, 0xe9, 0xbd, 0x07, 0xeb, 0x6d, 0x3e, 
  0xc5, 0xf3, 0xa7, 0xbf, 0xeb, 0xd3, 0xce, 0x3f, 0xc5, 0x54, 0x0f, 0x3f, 
  0x45, 0xa4, 0x40, 0xbe, 0x8c, 0xaa, 0xf8, 0x3e, 0x8e, 0xd9, 0x9e, 0x3f, 
  0xb8, 0xf3, 0xfe, 0x3e, 0xf0, 0xac, 0xe3, 0xbe, 0x5d, 0x22, 0x9e, 0xbf, 
  0x50, 0xfa, 0x99, 0xbf, 0x01, 0x17, 0xf3, 0x3e, 0x26, 0x84, 0xa0, 0x3e, 
  0x85, 0x81, 0xce, 0xbe, 0xb6, 0x42, 0x74, 0xbf, 0x9f, 0xdf, 0x6b, 0x3f, 
  0xda, 0xae, 0x94, 0x3e, 0xc0, 0x37, 0x95, 0x3f, 0xd3, 0x36, 0x0b, 0x3e, 
  0x92, 0xfc, 0x93, 0xbf, 0x7a, 0x05, 0xc8, 0xbf, 0xb1, 0xe2, 0x50, 0x3f, 
  0x06, 0x7b, 0x60, 0xbe, 0x84, 0x80, 0x75, 0xbf, 0xe8, 0xfe, 0x10, 0x3f, 
  0x3b, 0x7d, 0x0f, 0xbf, 0x96, 0xfe, 0xff, 0xff, 0x04, 0x00, 0x00, 0x00, 
  0x80, 0x00, 0x00, 0x00, 0xfa, 0xa1, 0x18, 0x3f, 0x70, 0x28, 0x03, 0xc0, 
  0xe4, 0x7c, 0xfe, 0x3e, 0xac, 0x11, 0x57, 0xc0, 0x1a, 0x7f, 0xf8, 0xbe, 
  0xd4, 0xf7, 0xfa, 0x3f, 0x8c, 0x9f, 0x43, 0x3f, 0xcf, 0x1e, 0x11, 0xc0, 
  0x46, 0xe3, 0x0a, 0x3f, 0xab, 0xae, 0xc9, 0x3e, 0xa4, 0x2d, 0x97, 0xc0, 
  0x32, 0x60, 0x18, 0x3f, 0x70, 0x5e, 0x0f, 0xbf, 0x88, 0x0f, 0xc0, 0x3f, 
  0x4c, 0x37, 0x1a, 0x3f, 0xc6, 0x03, 0xc4, 0x3d, 0xdf, 0x95, 0xa0, 0xbd, 
  0x82, 0x8c, 0xd1, 0x3f, 0x0a, 0x15, 0xa1, 0x3f, 0x03, 0x80, 0x54, 0xbe, 
  0x62, 0x29, 0x8f, 0xbf, 0x7d, 0x2c, 0x12, 0xc0, 0x70, 0xd3, 0x1a, 0x3f, 
  0x58, 0x19, 0x0a, 0x40, 0x73, 0x32, 0x7e, 0xc0, 0x0e, 0xaf, 0xda, 0xbe, 
  0x9c, 0xc1, 0xcc, 0xbe, 0x5b, 0x5c, 0xcf, 0x3f, 0x1e, 0xa4, 0x67, 0x3f, 
  0x96, 0xa9, 0xaf, 0xbf, 0xd6, 0x7e, 0x75, 0xc0, 0xc6, 0x8d, 0x85, 0xbe, 
  0x22, 0xff, 0xff, 0xff, 0x04, 0x00, 0x00, 0x00, 0x10, 0x00, 0x00, 0x00, 
  0x66, 0xe1, 0x28, 0x3f, 0xcb, 0xac, 0xf0, 0x3e, 0x3e, 0xc0, 0x59, 0xbf, 
  0x9d, 0x2b, 0xd0, 0xbe, 0x3e, 0xff, 0xff, 0xff, 0x04, 0x00, 0x00, 0x00, 
  0x20, 0x00, 0x00, 0x00, 0x56, 0xd2, 0x81, 0x3f, 0xfa, 0x95, 0x25, 0xbf, 
  0x9e, 0xcb, 0x85, 0x3e, 0xc5, 0xd5, 0xb2, 0xbd, 0xc3, 0x1b, 0xf6, 0x3c, 
  0x63, 0xb4, 0xb7, 0x3f, 0x37, 0x5f, 0x53, 0x3f, 0x58, 0x79, 0x38, 0xbf, 
  0x58, 0xfa, 0xff, 0xff, 0x5c, 0xfa, 0xff, 0xff, 0x0f, 0x00, 0x00, 0x00, 
  0x4d, 0x4c, 0x49, 0x52, 0x20, 0x43, 0x6f, 0x6e, 0x76, 0x65, 0x72, 0x74, 
  0x65, 0x64, 0x2e, 0x00, 0x01, 0x00, 0x00, 0x00, 0x14, 0x00, 0x00, 0x00, 
  0x00, 0x00, 0x0e, 0x00, 0x18, 0x00, 0x14, 0x00, 0x10, 0x00, 0x0c, 0x00, 
  0x08, 0x00, 0x04, 0x00, 0x0e, 0x00, 0x00, 0x00, 0x14, 0x00, 0x00, 0x00, 
  0x1c, 0x00, 0x00, 0x00, 0x24, 0x01, 0x00, 0x00, 0x28, 0x01, 0x00, 0x00, 
  0x2c, 0x01, 0x00, 0x00, 0x04, 0x00, 0x00, 0x00, 0x6d, 0x61, 0x69, 0x6e, 
  0x00, 0x00, 0x00, 0x00, 0x04, 0x00, 0x00, 0x00, 0xcc, 0x00, 0x00, 0x00, 
  0x84, 0x00, 0x00, 0x00, 0x50, 0x00, 0x00, 0x00, 0x14, 0x00, 0x00, 0x00, 
  0x00, 0x00, 0x0e, 0x00, 0x1a, 0x00, 0x14, 0x00, 0x10, 0x00, 0x0c, 0x00, 
  0x0b, 0x00, 0x04, 0x00, 0x0e, 0x00, 0x00, 0x00, 0x1c, 0x00, 0x00, 0x00, 
  0x00, 0x00, 0x00, 0x09, 0x1c, 0x00, 0x00, 0x00, 0x20, 0x00, 0x00, 0x00, 
  0x01, 0x00, 0x00, 0x00, 0x00, 0x00, 0x06, 0x00, 0x08, 0x00, 0x04, 0x00, 
  0x06, 0x00, 0x00, 0x00, 0x00, 0x00, 0x80, 0x3f, 0x01, 0x00, 0x00, 0x00, 
  0x0a, 0x00, 0x00, 0x00, 0x01, 0x00, 0x00, 0x00, 0x09, 0x00, 0x00, 0x00, 
  0x9a, 0xff, 0xff, 0xff, 0x10, 0x00, 0x00, 0x00, 0x00, 0x00, 0x00, 0x08, 
  0x0c, 0x00, 0x00, 0x00, 0x10, 0x00, 0x00, 0x00, 0x20, 0xfb, 0xff, 0xff, 
  0x01, 0x00, 0x00, 0x00, 0x09, 0x00, 0x00, 0x00, 0x03, 0x00, 0x00, 0x00, 
  0x08, 0x00, 0x00, 0x00, 0x03, 0x00, 0x00, 0x00, 0x02, 0x00, 0x00, 0x00, 
  0xca, 0xff, 0xff, 0xff, 0x10, 0x00, 0x00, 0x00, 0x00, 0x00, 0x00, 0x08, 
  0x10, 0x00, 0x00, 0x00, 0x14, 0x00, 0x00, 0x00, 0xba, 0xff, 0xff, 0xff, 
  0x00, 0x00, 0x00, 0x01, 0x01, 0x00, 0x00, 0x00, 0x08, 0x00, 0x00, 0x00, 
  0x03, 0x00, 0x00, 0x00, 0x07, 0x00, 0x00, 0x00, 0x04, 0x00, 0x00, 0x00, 
  0x01, 0x00, 0x00, 0x00, 0x00, 0x00, 0x0e, 0x00, 0x16, 0x00, 0x00, 0x00, 
  0x10, 0x00, 0x0c, 0x00, 0x0b, 0x00, 0x04, 0x00, 0x0e, 0x00, 0x00, 0x00, 
  0x18, 0x00, 0x00, 0x00, 0x00, 0x00, 0x00, 0x08, 0x18, 0x00, 0x00, 0x00, 
  0x1c, 0x00, 0x00, 0x00, 0x00, 0x00, 0x06, 0x00, 0x08, 0x00, 0x07, 0x00, 
  0x06, 0x00, 0x00, 0x00, 0x00, 0x00, 0x00, 0x01, 0x01, 0x00, 0x00, 0x00, 
  0x07, 0x00, 0x00, 0x00, 0x03, 0x00, 0x00, 0x00, 0x00, 0x00, 0x00, 0x00, 
  0x05, 0x00, 0x00, 0x00, 0x06, 0x00, 0x00, 0x00, 0x01, 0x00, 0x00, 0x00, 
  0x0a, 0x00, 0x00, 0x00, 0x01, 0x00, 0x00, 0x00, 0x00, 0x00, 0x00, 0x00, 
  0x0b, 0x00, 0x00, 0x00, 0x08, 0x04, 0x00, 0x00, 0xb4, 0x03, 0x00, 0x00, 
  0x60, 0x03, 0x00, 0x00, 0x20, 0x03, 0x00, 0x00, 0xe0, 0x02, 0x00, 0x00, 
  0x90, 0x02, 0x00, 0x00, 0x24, 0x02, 0x00, 0x00, 0x84, 0x01, 0x00, 0x00, 
  0xe4, 0x00, 0x00, 0x00, 0x60, 0x00, 0x00, 0x00, 0x04, 0x00, 0x00, 0x00, 
  0x3a, 0xfc, 0xff, 0xff, 0x00, 0x00, 0x00, 0x01, 0x14, 0x00, 0x00, 0x00, 
  0x1c, 0x00, 0x00, 0x00, 0x1c, 0x00, 0x00, 0x00, 0x0b, 0x00, 0x00, 0x00, 
  0x34, 0x00, 0x00, 0x00, 0x02, 0x00, 0x00, 0x00, 0xff, 0xff, 0xff, 0xff, 
  0x04, 0x00, 0x00, 0x00, 0x24, 0xfc, 0xff, 0xff, 0x1b, 0x00, 0x00, 0x00, 
  0x53, 0x74, 0x61, 0x74, 0x65, 0x66, 0x75, 0x6c, 0x50, 0x61, 0x72, 0x74, 
  0x69, 0x74, 0x69, 0x6f, 0x6e, 0x65, 0x64, 0x43, 0x61, 0x6c, 0x6c, 0x5f, 
  0x31, 0x3a, 0x30, 0x00, 0x02, 0x00, 0x00, 0x00, 0x01, 0x00, 0x00, 0x00, 
  0x04, 0x00, 0x00, 0x00, 0x92, 0xfc, 0xff, 0xff, 0x00, 0x00, 0x00, 0x01, 
  0x14, 0x00, 0x00, 0x00, 0x1c, 0x00, 0x00, 0x00, 0x1c, 0x00, 0x00, 0x00, 
  0x0a, 0x00, 0x00, 0x00, 0x5c, 0x00, 0x00, 0x00, 0x02, 0x00, 0x00, 0x00, 
  0xff, 0xff, 0xff, 0xff, 0x04, 0x00, 0x00, 0x00, 0x7c, 0xfc, 0xff, 0xff, 
  0x40, 0x00, 0x00, 0x00, 0x73, 0x65, 0x71, 0x75, 0x65, 0x6e, 0x74, 0x69, 
  0x61, 0x6c, 0x5f, 0x31, 0x5f, 0x31, 0x2f, 0x64, 0x65, 0x6e, 0x73, 0x65, 
  0x5f, 0x35, 0x5f, 0x31, 0x2f, 0x4d, 0x61, 0x74, 0x4d, 0x75, 0x6c, 0x3b, 
  0x73, 0x65, 0x71, 0x75, 0x65, 0x6e, 0x74, 0x69, 0x61, 0x6c, 0x5f, 0x31, 
  0x5f, 0x31, 0x2f, 0x64, 0x65, 0x6e, 0x73, 0x65, 0x5f, 0x35, 0x5f, 0x31, 
  0x2f, 0x42, 0x69, 0x61, 0x73, 0x41, 0x64, 0x64, 0x00, 0x00, 0x00, 0x00, 
  0x02, 0x00, 0x00, 0x00, 0x01, 0x00, 0x00, 0x00, 0x04, 0x00, 0x00, 0x00, 
  0x12, 0xfd, 0xff, 0xff, 0x00, 0x00, 0x00, 0x01, 0x14, 0x00, 0x00, 0x00, 
  0x1c, 0x00, 0x00, 0x00, 0x1c, 0x00, 0x00, 0x00, 0x09, 0x00, 0x00, 0x00, 
  0x78, 0x00, 0x00, 0x00, 0x02, 0x00, 0x00, 0x00, 0xff, 0xff, 0xff, 0xff, 
  0x08, 0x00, 0x00, 0x00, 0xfc, 0xfc, 0xff, 0xff, 0x5e, 0x00, 0x00, 0x00, 
  0x73, 0x65, 0x71, 0x75, 0x65, 0x6e, 0x74, 0x69, 0x61, 0x6c, 0x5f, 0x31, 
  0x5f, 0x31, 0x2f, 0x64, 0x65, 0x6e, 0x73, 0x65, 0x5f, 0x34, 0x5f, 0x31, 
  0x2f, 0x4d, 0x61, 0x74, 0x4d, 0x75, 0x6c, 0x3b, 0x73, 0x65, 0x71, 0x75, 
  0x65, 0x6e, 0x74, 0x69, 0x61, 0x6c, 0x5f, 0x31, 0x5f, 0x31, 0x2f, 0x64, 
  0x65, 0x6e, 0x73, 0x65, 0x5f, 0x34, 0x5f, 0x31, 0x2f, 0x52, 0x65, 0x6c, 
  0x75, 0x3b, 0x73, 0x65, 0x71, 0x75, 0x65, 0x6e, 0x74, 0x69, 0x61, 0x6c, 
  0x5f, 0x31, 0x5f, 0x31, 0x2f, 0x64, 0x65, 0x6e, 0x73, 0x65, 0x5f, 0x34, 
  0x5f, 0x31, 0x2f, 0x42, 0x69, 0x61, 0x73, 0x41, 0x64, 0x64, 0x00, 0x00, 
  0x02, 0x00, 0x00, 0x00, 0x01, 0x00, 0x00, 0x00, 0x08, 0x00, 0x00, 0x00, 
  0xae, 0xfd, 0xff, 0xff, 0x00, 0x00, 0x00, 0x01, 0x14, 0x00, 0x00, 0x00, 
  0x1c, 0x00, 0x00, 0x00, 0x1c, 0x00, 0x00, 0x00, 0x08, 0x00, 0x00, 0x00, 
  0x78, 0x00, 0x00, 0x00, 0x02, 0x00, 0x00, 0x00, 0xff, 0xff, 0xff, 0xff, 
  0x10, 0x00, 0x00, 0x00, 0x98, 0xfd, 0xff, 0xff, 0x5e, 0x00, 0x00, 0x00, 
  0x73, 0x65, 0x71, 0x75, 0x65, 0x6e, 0x74, 0x69, 0x61, 0x6c, 0x5f, 0x31, 
  0x5f, 0x31, 0x2f, 0x64, 0x65, 0x6e, 0x73, 0x65, 0x5f, 0x33, 0x5f, 0x31, 
  0x2f, 0x4d, 0x61, 0x74, 0x4d, 0x75, 0x6c, 0x3b, 0x73, 0x65, 0x71, 0x75, 
  0x65, 0x6e, 0x74, 0x69, 0x61, 0x6c, 0x5f, 0x31, 0x5f, 0x31, 0x2f, 0x64, 
  0x65, 0x6e, 0x73, 0x65, 0x5f, 0x33, 0x5f, 0x31, 0x2f, 0x52, 0x65, 0x6c, 
  0x75, 0x3b, 0x73, 0x65, 0x71, 0x75, 0x65, 0x6e, 0x74, 0x69, 0x61, 0x6c, 
  0x5f, 0x31, 0x5f, 0x31, 0x2f, 0x64, 0x65, 0x6e, 0x73, 0x65, 0x5f, 0x33, 
  0x5f, 0x31, 0x2f, 0x42, 0x69, 0x61, 0x73, 0x41, 0x64, 0x64, 0x00, 0x00, 
  0x02, 0x00, 0x00, 0x00, 0x01, 0x00, 0x00, 0x00, 0x10, 0x00, 0x00, 0x00, 
  0x9a, 0xfe, 0xff, 0xff, 0x00, 0x00, 0x00, 0x01, 0x10, 0x00, 0x00, 0x00, 
  0x10, 0x00, 0x00, 0x00, 0x07, 0x00, 0x00, 0x00, 0x4c, 0x00, 0x00, 0x00, 
  0x24, 0xfe, 0xff, 0xff, 0x3e, 0x00, 0x00, 0x00, 0x73, 0x65, 0x71, 0x75, 
  0x65, 0x6e, 0x74, 0x69, 0x61, 0x6c, 0x5f, 0x31, 0x5f, 0x31, 0x2f, 0x64, 
  0x65, 0x6e, 0x73, 0x65, 0x5f, 0x33, 0x5f, 0x31, 0x2f, 0x52, 0x65, 0x6c, 
  0x75, 0x3b, 0x73, 0x65, 0x71, 0x75, 0x65, 0x6e, 0x74, 0x69, 0x61, 0x6c, 
  0x5f, 0x31, 0x5f, 0x31, 0x2f, 0x64, 0x65, 0x6e, 0x73, 0x65, 0x5f, 0x33, 
  0x5f, 0x31, 0x2f, 0x42, 0x69, 0x61, 0x73, 0x41, 0x64, 0x64, 0x00, 0x00, 
  0x01, 0x00, 0x00, 0x00, 0x10, 0x00, 0x00, 0x00, 0x02, 0xff, 0xff, 0xff, 
  0x00, 0x00, 0x00, 0x01, 0x10, 0x00, 0x00, 0x00, 0x10, 0x00, 0x00, 0x00, 
  0x06, 0x00, 0x00, 0x00, 0x2c, 0x00, 0x00, 0x00, 0x8c, 0xfe, 0xff, 0xff, 
  0x1f, 0x00, 0x00, 0x00, 0x73, 0x65, 0x71, 0x75, 0x65, 0x6e, 0x74, 0x69, 
  0x61, 0x6c, 0x5f, 0x31, 0x5f, 0x31, 0x2f, 0x64, 0x65, 0x6e, 0x73, 0x65, 
  0x5f, 0x33, 0x5f, 0x31, 0x2f, 0x4d, 0x61, 0x74, 0x4d, 0x75, 0x6c, 0x00, 
  0x02, 0x00, 0x00, 0x00, 0x10, 0x00, 0x00, 0x00, 0x04, 0x00, 0x00, 0x00, 
  0x4e, 0xff, 0xff, 0xff, 0x00, 0x00, 0x00, 0x01, 0x10, 0x00, 0x00, 0x00, 
  0x10, 0x00, 0x00, 0x00, 0x05, 0x00, 0x00, 0x00, 0x1c, 0x00, 0x00, 0x00, 
  0xd8, 0xfe, 0xff, 0xff, 0x0f, 0x00, 0x00, 0x00, 0x61, 0x72, 0x69, 0x74, 
  0x68, 0x2e, 0x63, 0x6f, 0x6e, 0x73, 0x74, 0x61, 0x6e, 0x74, 0x33, 0x00, 
  0x02, 0x00, 0x00, 0x00, 0x08, 0x00, 0x00, 0x00, 0x10, 0x00, 0x00, 0x00, 
  0x8a, 0xff, 0xff, 0xff, 0x00, 0x00, 0x00, 0x01, 0x10, 0x00, 0x00, 0x00, 
  0x10, 0x00, 0x00, 0x00, 0x04, 0x00, 0x00, 0x00, 0x1c, 0x00, 0x00, 0x00, 
  0x14, 0xff, 0xff, 0xff, 0x0f, 0x00, 0x00, 0x00, 0x61, 0x72, 0x69, 0x74, 
  0x68, 0x2e, 0x63, 0x6f, 0x6e, 0x73, 0x74, 0x61, 0x6e, 0x74, 0x32, 0x00, 
  0x02, 0x00, 0x00, 0x00, 0x04, 0x00, 0x00, 0x00, 0x08, 0x00, 0x00, 0x00, 
  0xc6, 0xff, 0xff, 0xff, 0x00, 0x00, 0x00, 0x01, 0x10, 0x00, 0x00, 0x00, 
  0x10, 0x00, 0x00, 0x00, 0x03, 0x00, 0x00, 0x00, 0x1c, 0x00, 0x00, 0x00, 
  0x50, 0xff, 0xff, 0xff, 0x0f, 0x00, 0x00, 0x00, 0x61, 0x72, 0x69, 0x74, 
  0x68, 0x2e, 0x63, 0x6f, 0x6e, 0x73, 0x74, 0x61, 0x6e, 0x74, 0x31, 0x00, 
  0x01, 0x00, 0x00, 0x00, 0x04, 0x00, 0x00, 0x00, 0x00, 0x00, 0x16, 0x00, 
  0x18, 0x00, 0x14, 0x00, 0x00, 0x00, 0x10, 0x00, 0x0c, 0x00, 0x08, 0x00, 
  0x00, 0x00, 0x00, 0x00, 0x00, 0x00, 0x07, 0x00, 0x16, 0x00, 0x00, 0x00, 
  0x00, 0x00, 0x00, 0x01, 0x10, 0x00, 0x00, 0x00, 0x10, 0x00, 0x00, 0x00, 
  0x02, 0x00, 0x00, 0x00, 0x1c, 0x00, 0x00, 0x00, 0xa0, 0xff, 0xff, 0xff, 
  0x0e, 0x00, 0x00, 0x00, 0x61, 0x72, 0x69, 0x74, 0x68, 0x2e, 0x63, 0x6f, 
  0x6e, 0x73, 0x74, 0x61, 0x6e, 0x74, 0x00, 0x00, 0x01, 0x00, 0x00, 0x00, 
  0x08, 0x00, 0x00, 0x00, 0x00, 0x00, 0x16, 0x00, 0x1c, 0x00, 0x18, 0x00, 
  0x00, 0x00, 0x14, 0x00, 0x10, 0x00, 0x0c, 0x00, 0x00, 0x00, 0x00, 0x00, 
  0x08, 0x00, 0x07, 0x00, 0x16, 0x00, 0x00, 0x00, 0x00, 0x00, 0x00, 0x01, 
  0x14, 0x00, 0x00, 0x00, 0x20, 0x00, 0x00, 0x00, 0x20, 0x00, 0x00, 0x00, 
  0x01, 0x00, 0x00, 0x00, 0x40, 0x00, 0x00, 0x00, 0x02, 0x00, 0x00, 0x00, 
  0xff, 0xff, 0xff, 0xff, 0x04, 0x00, 0x00, 0x00, 0x04, 0x00, 0x04, 0x00, 
  0x04, 0x00, 0x00, 0x00, 0x20, 0x00, 0x00, 0x00, 0x73, 0x65, 0x72, 0x76, 
  0x69, 0x6e, 0x67, 0x5f, 0x64, 0x65, 0x66, 0x61, 0x75, 0x6c, 0x74, 0x5f, 
  0x6b, 0x65, 0x72, 0x61, 0x73, 0x5f, 0x74, 0x65, 0x6e, 0x73, 0x6f, 0x72, 
  0x5f, 0x34, 0x3a, 0x30, 0x00, 0x00, 0x00, 0x00, 0x02, 0x00, 0x00, 0x00, 
  0x01, 0x00, 0x00, 0x00, 0x04, 0x00, 0x00, 0x00, 0x02, 0x00, 0x00, 0x00, 
  0x20, 0x00, 0x00, 0x00, 0x04, 0x00, 0x00, 0x00, 0xf4, 0xff, 0xff, 0xff, 
  0x19, 0x00, 0x00, 0x00, 0x00, 0x00, 0x00, 0x19, 0x0c, 0x00, 0x0c, 0x00, 
  0x0b, 0x00, 0x00, 0x00, 0x00, 0x00, 0x04, 0x00, 0x0c, 0x00, 0x00, 0x00, 
  0x09, 0x00, 0x00, 0x00, 0x00, 0x00, 0x00, 0x09, 
};
unsigned int hypoxemia_model_tflite_len = 3128;
