// Auto-generated from C:/#PROJECT/Hypoxemia and stress monitor/hypoxemia-and-stress-monitor\stress_model.tflite
unsigned char stress_model_tflite[] = {
  0x1c, 0x00, 0x00, 0x00, 0x54, 0x46, 0x4c, 0x33, 0x14, 0x00, 0x20, 0x00, 
  0x1c, 0x00, 0x18, 0x00, 0x14, 0x00, 0x10, 0x00, 0x0c, 0x00, 0x00, 0x00, 
  0x08, 0x00, 0x04, 0x00, 0x14, 0x00, 0x00, 0x00, 0x1c, 0x00, 0x00, 0x00, 
  0x98, 0x00, 0x00, 0x00, 0xf0, 0x00, 0x00, 0x00, 0xdc, 0x05, 0x00, 0x00, 
  0xec, 0x05, 0x00, 0x00, 0x8c, 0x0b, 0x00, 0x00, 0x03, 0x00, 0x00, 0x00, 
  0x01, 0x00, 0x00, 0x00, 0x10, 0x00, 0x00, 0x00, 0x00, 0x00, 0x0a, 0x00, 
  0x10, 0x00, 0x0c, 0x00, 0x08, 0x00, 0x04, 0x00, 0x0a, 0x00, 0x00, 0x00, 
  0x0c, 0x00, 0x00, 0x00, 0x1c, 0x00, 0x00, 0x00, 0x3c, 0x00, 0x00, 0x00, 
  0x0f, 0x00, 0x00, 0x00, 0x73, 0x65, 0x72, 0x76, 0x69, 0x6e, 0x67, 0x5f, 
  0x64, 0x65, 0x66, 0x61, 0x75, 0x6c, 0x74, 0x00, 0x01, 0x00, 0x00, 0x00, 
  0x04, 0x00, 0x00, 0x00, 0x90, 0xff, 0xff, 0xff, 0x0a, 0x00, 0x00, 0x00, 
  0x04, 0x00, 0x00, 0x00, 0x08, 0x00, 0x00, 0x00, 0x6f, 0x75, 0x74, 0x70, 
  0x75, 0x74, 0x5f, 0x30, 0x00, 0x00, 0x00, 0x00, 0x01, 0x00, 0x00, 0x00, 
  0x04, 0x00, 0x00, 0x00, 0x0a, 0xfa, 0xff, 0xff, 0x04, 0x00, 0x00, 0x00, 
  0x0c, 0x00, 0x00, 0x00, 0x6b, 0x65, 0x72, 0x61, 0x73, 0x5f, 0x74, 0x65, 
  0x6e, 0x73, 0x6f, 0x72, 0x00, 0x00, 0x00, 0x00, 0x02, 0x00, 0x00, 0x00, 
  0x34, 0x00, 0x00, 0x00, 0x04, 0x00, 0x00, 0x00, 0xdc, 0xff, 0xff, 0xff, 
  0x0d, 0x00, 0x00, 0x00, 0x04, 0x00, 0x00, 0x00, 0x13, 0x00, 0x00, 0x00, 
  0x43, 0x4f, 0x4e, 0x56, 0x45, 0x52, 0x53, 0x49, 0x4f, 0x4e, 0x5f, 0x4d, 
  0x45, 0x54, 0x41, 0x44, 0x41, 0x54, 0x41, 0x00, 0x08, 0x00, 0x0c, 0x00, 
  0x08, 0x00, 0x04, 0x00, 0x08, 0x00, 0x00, 0x00, 0x0c, 0x00, 0x00, 0x00, 
  0x04, 0x00, 0x00, 0x00, 0x13, 0x00, 0x00, 0x00, 0x6d, 0x69, 0x6e, 0x5f, 
  0x72, 0x75, 0x6e, 0x74, 0x69, 0x6d, 0x65, 0x5f, 0x76, 0x65, 0x72, 0x73, 
  0x69, 0x6f, 0x6e, 0x00, 0x0e, 0x00, 0x00, 0x00, 0xe8, 0x04, 0x00, 0x00, 
  0xe0, 0x04, 0x00, 0x00, 0xb0, 0x04, 0x00, 0x00, 0x94, 0x04, 0x00, 0x00, 
  0x24, 0x04, 0x00, 0x00, 0x14, 0x02, 0x00, 0x00, 0x04, 0x01, 0x00, 0x00, 
  0xb4, 0x00, 0x00, 0x00, 0xac, 0x00, 0x00, 0x00, 0xa4, 0x00, 0x00, 0x00, 
  0x9c, 0x00, 0x00, 0x00, 0x94, 0x00, 0x00, 0x00, 0x74, 0x00, 0x00, 0x00, 
  0x04, 0x00, 0x00, 0x00, 0xbe, 0xfa, 0xff, 0xff, 0x04, 0x00, 0x00, 0x00, 
  0x60, 0x00, 0x00, 0x00, 0x10, 0x00, 0x00, 0x00, 0x00, 0x00, 0x00, 0x00, 
  0x08, 0x00, 0x0e, 0x00, 0x08, 0x00, 0x04, 0x00, 0x08, 0x00, 0x00, 0x00, 
  0x10, 0x00, 0x00, 0x00, 0x24, 0x00, 0x00, 0x00, 0x00, 0x00, 0x06, 0x00, 
  0x08, 0x00, 0x04, 0x00, 0x06, 0x00, 0x00, 0x00, 0x04, 0x00, 0x00, 0x00, 
  0x00, 0x00, 0x00, 0x00, 0x0c, 0x00, 0x18, 0x00, 0x14, 0x00, 0x10, 0x00, 
  0x0c, 0x00, 0x04, 0x00, 0x0c, 0x00, 0x00, 0x00, 0x27, 0xe1, 0x10, 0x95, 
  0xf2, 0x0f, 0x12, 0x00, 0x02, 0x00, 0x00, 0x00, 0x02, 0x00, 0x00, 0x00, 
  0x04, 0x00, 0x00, 0x00, 0x06, 0x00, 0x00, 0x00, 0x32, 0x2e, 0x32, 0x30, 
  0x2e, 0x30, 0x00, 0x00, 0x2a, 0xfb, 0xff, 0xff, 0x04, 0x00, 0x00, 0x00, 
  0x10, 0x00, 0x00, 0x00, 0x31, 0x2e, 0x35, 0x2e, 0x30, 0x00, 0x00, 0x00, 
  0x00, 0x00, 0x00, 0x00, 0x00, 0x00, 0x00, 0x00, 0x54, 0xf6, 0xff, 0xff, 
  0x58, 0xf6, 0xff, 0xff, 0x5c, 0xf6, 0xff, 0xff, 0x60, 0xf6, 0xff, 0xff, 
  0x56, 0xfb, 0xff, 0xff, 0x04, 0x00, 0x00, 0x00, 0x40, 0x00, 0x00, 0x00, 
  0xf7, 0x68, 0xdc, 0xbd, 0xb8, 0x5c, 0x05, 0x3f, 0x7c, 0x99, 0xf7, 0xbd, 
  0x5c, 0x60, 0xcd, 0x3e, 0x91, 0x89, 0x27, 0x3e, 0x6c, 0x24, 0x47, 0x3f, 
  0x7b, 0x51, 0x10, 0x3f, 0x8a, 0x34, 0x1a, 0x3f, 0xd7, 0x47, 0xbd, 0x3e, 
  0x04, 0xb5, 0xe6, 0xbc, 0xa8, 0x62, 0x54, 0xbc, 0x3b, 0x23, 0x9e, 0xbd, 
  0x55, 0x19, 0x33, 0xbe, 0xdb, 0x94, 0xd2, 0x3e, 0x3e, 0x5c, 0xc2, 0x3e, 
  0x35, 0xc1, 0x57, 0x3d, 0xa2, 0xfb, 0xff, 0xff, 0x04, 0x00, 0x00, 0x00, 
  0x00, 0x01, 0x00, 0x00, 0x90, 0xb5, 0x42, 0xbe, 0x28, 0x93, 0x8c, 0xbe, 
  0x2a, 0x8b, 0xda, 0xbe, 0x1e, 0xa0, 0xa0, 0xbf, 0x34, 0x2e, 0xa0, 0xbd, 
  0x72, 0x7b, 0x5f, 0xbd, 0xbe, 0x38, 0x9b, 0x3e, 0xb4, 0x8b, 0x9e, 0xbe, 
  0xac, 0x00, 0xc4, 0xbe, 0x05, 0x9c, 0x37, 0xbf, 0x5a, 0xcc, 0x1e, 0xbe, 
  0x4d, 0x1c, 0x8b, 0xbf, 0x3a, 0xf1, 0x51, 0x3f, 0x89, 0x91, 0x26, 0x3f, 
  0x1e, 0xb8, 0x9f, 0x3e, 0xd0, 0xea, 0xb0, 0xbe, 0x36, 0x53, 0x89, 0xbf, 
  0xa2, 0x03, 0xe2, 0x3d, 0x58, 0x8e, 0xa0, 0x3d, 0x74, 0x4d, 0x84, 0xbe, 
  0xd1, 0xa6, 0x8f, 0x3e, 0xa5, 0x92, 0x6d, 0xbf, 0xc0, 0xa4, 0xc4, 0xbe, 
  0x7f, 0xc2, 0xe0, 0xbe, 0xec, 0x32, 0x6d, 0x3d, 0xba, 0x01, 0x09, 0xbf, 
  0x4d, 0x18, 0xf3, 0xbe, 0xde, 0xde, 0xcd, 0x3e, 0xc5, 0x8d, 0x31, 0x3f, 
  0x5d, 0x92, 0x6f, 0xbe, 0xdf, 0x2b, 0xf3, 0xbd, 0x5c, 0x12, 0x9c, 0xbf, 
  0x06, 0x11, 0xad, 0x3e, 0x63, 0x7c, 0xeb, 0xbe, 0x77, 0xc1, 0x05, 0x3e, 
  0xc5, 0x45, 0xe8, 0x3e, 0x5a, 0xa7, 0x06, 0x3f, 0x72, 0x88, 0xc5, 0xbe, 
  0x1d, 0x6a, 0x49, 0x3f, 0x5e, 0xe9, 0xdc, 0xbd, 0xe4, 0xa2, 0xe5, 0x3e, 
  0x4e, 0x87, 0x25, 0xbf, 0xd3, 0x03, 0x0c, 0x3f, 0x5f, 0x08, 0x0e, 0x3e, 
  0x35, 0xfa, 0xb5, 0x3c, 0xb1, 0xe3, 0x66, 0x3f, 0x54, 0x76, 0x9d, 0xbe, 
  0xc8, 0xe1, 0xa5, 0x3e, 0xd4, 0xe9, 0x4d, 0x3f, 0xa0, 0x1c, 0xd1, 0xbe, 
  0xc7, 0x85, 0xf4, 0xbb, 0x2e, 0x93, 0x15, 0xbe, 0x98, 0xc5, 0x9b, 0x3d, 
  0xd0, 0xa7, 0x29, 0xbf, 0xf3, 0x17, 0xe5, 0xbe, 0x0b, 0x0b, 0x4d, 0x3e, 
  0x1c, 0xe5, 0xcb, 0xbc, 0xd9, 0x21, 0x0c, 0x3f, 0xb9, 0x3a, 0xb2, 0xbd, 
  0x7c, 0xde, 0xdf, 0xbd, 0x47, 0x8a, 0xa5, 0x3e, 0x42, 0x02, 0x13, 0x3f, 
  0x69, 0x77, 0x98, 0x3e, 0xfe, 0xde, 0xc1, 0xbf, 0xae, 0xfc, 0xff, 0xff, 
  0x04, 0x00, 0x00, 0x00, 0x00, 0x02, 0x00, 0x00, 0x57, 0xae, 0xbe, 0x3d, 
  0xee, 0x7d, 0xd1, 0x3e, 0x80, 0xd1, 0xd2, 0x3e, 0xd7, 0xaf, 0xc5, 0x3d, 
  0x74, 0xad, 0x4f, 0x3e, 0xb1, 0x0b, 0x90, 0x3e, 0x02, 0x99, 0x1e, 0x3f, 
  0x44, 0x0c, 0x0c, 0xbe, 0x4f, 0xa9, 0xba, 0x3d, 0xf7, 0xc7, 0xe1, 0xbc, 
  0xca, 0x17, 0x9e, 0x3e, 0x3f, 0xf5, 0x97, 0xbc, 0xae, 0x99, 0xcb, 0xbe, 
  0xac, 0xbb, 0x63, 0x3e, 0xfa, 0xf9, 0xc7, 0x3c, 0x74, 0xc3, 0x00, 0x3e, 
  0xea, 0x6c, 0x9e, 0xbf, 0x48, 0x0e, 0x81, 0x3d, 0x83, 0x12, 0xe8, 0x3c, 
  0xf9, 0x7a, 0xac, 0x3e, 0xc7, 0x47, 0x19, 0xc0, 0x0c, 0x0b, 0x45, 0xbf, 
  0x9f, 0x6c, 0x32, 0x3e, 0x03, 0xc6, 0x03, 0x3e, 0x97, 0x0c, 0x99, 0xbe, 
  0xfe, 0xd5, 0x93, 0x3e, 0x31, 0x94, 0x14, 0x3f, 0xe8, 0x33, 0x6d, 0xbe, 
  0x12, 0xb9, 0xe7, 0xbc, 0x7f, 0xe3, 0x59, 0x3e, 0x4c, 0x4c, 0xcc, 0x3e, 
  0x6a, 0x29, 0xec, 0xbc, 0xca, 0xf5, 0x21, 0x3d, 0x11, 0xef, 0x93, 0x3e, 
  0xc1, 0x87, 0x1e, 0x3f, 0x7f, 0xe0, 0x8a, 0x3e, 0xd1, 0x0a, 0xf8, 0x3c, 
  0x3f, 0x18, 0x9b, 0xbf, 0x78, 0x71, 0xfa, 0xbe, 0x63, 0xcd, 0x1e, 0xbf, 
  0x6b, 0x6e, 0x8e, 0xbd, 0x66, 0x68, 0xc6, 0x3d, 0x54, 0x92, 0x64, 0x3f, 
  0x7b, 0xda, 0xee, 0x3e, 0xbe, 0xc0, 0x4a, 0xbd, 0x31, 0xa2, 0x30, 0xbe, 
  0x6a, 0x91, 0x0c, 0x3e, 0x7c, 0x3e, 0xe5, 0xbe, 0x9e, 0x0c, 0xd7, 0x3d, 
  0x0e, 0x01, 0x0a, 0x3d, 0x6a, 0x73, 0xc3, 0xbe, 0xd4, 0xd4, 0xbd, 0xbe, 
  0xef, 0xee, 0x20, 0x3f, 0x6f, 0x0d, 0x51, 0x3e, 0x4d, 0xf3, 0x34, 0x3f, 
  0xcc, 0x96, 0x04, 0x3f, 0xb6, 0xe4, 0xb3, 0xbe, 0x18, 0x9f, 0x25, 0xbf, 
  0x4b, 0xa7, 0x0a, 0x3e, 0x0d, 0x9d, 0xb3, 0xbe, 0xed, 0x9b, 0xdf, 0x3d, 
  0xa8, 0xe4, 0xfd, 0x3e, 0xf1, 0xfd, 0xfc, 0xbe, 0xda, 0x0c, 0xe9, 0x3e, 
  0x29, 0x69, 0x5f, 0x3e, 0x71, 0x65, 0x7e, 0x3e, 0x48, 0x19, 0x73, 0x3e, 
  0xa6, 0xe3, 0xdf, 0xbf, 0x39, 0x54, 0x6b, 0x3e, 0x31, 0x15, 0x86, 0x3d, 
  0xe0, 0xd6, 0xb0, 0xbe, 0x06, 0x41, 0x5d, 0xc0, 0xd8, 0xce, 0x15, 0xc0, 
  0xcb, 0xfd, 0x87, 0xbf, 0x5b, 0x86, 0x3f, 0xc0, 0x31, 0x06, 0x5c, 0xbf, 
  0xea, 0xe5, 0x8b, 0x3e, 0xd2, 0x31, 0x87, 0xbe, 0x10, 0x67, 0x9a, 0xbe, 
  0x3d, 0x1c, 0x78, 0x3f, 0x0f, 0x14, 0xd5, 0x3e, 0xe2, 0x84, 0xe8, 0xbe, 
  0xac, 0xc5, 0x08, 0x3f, 0x95, 0xc8, 0x2c, 0xbf, 0xdc, 0x43, 0x08, 0xbd, 
  0x3f, 0xc7, 0xcf, 0x3d, 0x84, 0xad, 0x12, 0xbe, 0x02, 0x3c, 0x25, 0x3f, 
  0x35, 0x9a, 0xb2, 0x3e, 0x1e, 0xcb, 0x16, 0xbf, 0x10, 0x09, 0x37, 0x3e, 
  0xef, 0xa7, 0xad, 0x3e, 0x62, 0xb2, 0x07, 0x3f, 0x2a, 0x51, 0x36, 0x3d, 
  0xf1, 0x4f, 0x65, 0xbd, 0xb5, 0x2b, 0xb1, 0xbf, 0xfb, 0x49, 0x66, 0x3f, 
  0x80, 0xbb, 0xb9, 0x3c, 0x68, 0xfd, 0xdc, 0x3f, 0x99, 0x9b, 0x1d, 0x3f, 
  0xa8, 0x03, 0x5f, 0x3e, 0x2d, 0x95, 0xc6, 0x3f, 0xfd, 0xca, 0x13, 0x3f, 
  0xa0, 0xe8, 0xd9, 0x3e, 0xb7, 0x69, 0x3c, 0x3f, 0x77, 0xee, 0x0c, 0x3f, 
  0xdf, 0x25, 0xd8, 0x3e, 0x10, 0x4a, 0x92, 0x3e, 0xec, 0xa4, 0x81, 0xbe, 
  0x4c, 0x53, 0x60, 0x3f, 0xc5, 0xfd, 0x48, 0x3b, 0xaa, 0x4c, 0x17, 0x3f, 
  0xd0, 0x51, 0xcb, 0x3c, 0x74, 0x85, 0x57, 0x3f, 0x04, 0xb1, 0xf1, 0xbe, 
  0xd1, 0x96, 0xfb, 0x3d, 0xae, 0x04, 0x28, 0x3f, 0x49, 0x5a, 0xfe, 0x3e, 
  0xf6, 0xa8, 0xbd, 0x3e, 0xd9, 0xec, 0xb2, 0x3d, 0xad, 0x01, 0x54, 0x3e, 
  0x32, 0x56, 0x19, 0xbe, 0xab, 0x59, 0x86, 0x3e, 0x6f, 0x02, 0xb1, 0xbe, 
  0x87, 0x2c, 0x28, 0xbf, 0x40, 0xab, 0x30, 0x3f, 0xde, 0xdd, 0x05, 0x3f, 
  0x1b, 0x4a, 0x6f, 0x3e, 0xba, 0xfe, 0xff, 0xff, 0x04, 0x00, 0x00, 0x00, 
  0x60, 0x00, 0x00, 0x00, 0x36, 0x4d, 0x7d, 0x3e, 0xab, 0x22, 0xe0, 0x3e, 
  0x97, 0x9d, 0x08, 0xc0, 0xea, 0xb2, 0x86, 0xbf, 0x9d, 0x53, 0x89, 0x3f, 
  0x26, 0xa3, 0x8d, 0x3f, 0x04, 0x3c, 0x14, 0x3f, 0x67, 0x15, 0x37, 0xbf, 
  0x22, 0x7d, 0xce, 0x3e, 0xd3, 0x7e, 0xd8, 0xbe, 0xf5, 0xeb, 0x6a, 0x3f, 
  0x5a, 0x2c, 0x48, 0x3d, 0x9a, 0x96, 0x83, 0xbf, 0x70, 0x75, 0x87, 0xbf, 
  0x9f, 0x6e, 0x34, 0x3f, 0x98, 0xce, 0x3c, 0x3f, 0xcb, 0x40, 0xe9, 0xbe, 
  0xc4, 0x11, 0xa7, 0xbf, 0x41, 0x42, 0xdf, 0xbf, 0x26, 0x7d, 0xda, 0xbd, 
  0xaa, 0x2b, 0xd8, 0xbe, 0xd4, 0x85, 0x44, 0x3e, 0xe5, 0xb4, 0xc8, 0xbf, 
  0x94, 0x23, 0x7a, 0x3b, 0x26, 0xff, 0xff, 0xff, 0x04, 0x00, 0x00, 0x00, 
  0x0c, 0x00, 0x00, 0x00, 0x7a, 0x32, 0xc1, 0xbd, 0x42, 0x98, 0x50, 0x3d, 
  0x10, 0x19, 0x1d, 0x3e, 0x3e, 0xff, 0xff, 0xff, 0x04, 0x00, 0x00, 0x00, 
  0x20, 0x00, 0x00, 0x00, 0x44, 0xc2, 0xcb, 0x3c, 0xd2, 0x78, 0xc9, 0x3d, 
  0x2f, 0xa5, 0x53, 0xbe, 0xb8, 0xef, 0xd4, 0xbd, 0x63, 0x26, 0x96, 0x3e, 
  0xc5, 0xc7, 0x73, 0x3d, 0xf0, 0x18, 0x8f, 0xbe, 0x82, 0x36, 0xbd, 0x3d, 
  0x78, 0xfa, 0xff, 0xff, 0x7c, 0xfa, 0xff, 0xff, 0x0f, 0x00, 0x00, 0x00, 
  0x4d, 0x4c, 0x49, 0x52, 0x20, 0x43, 0x6f, 0x6e, 0x76, 0x65, 0x72, 0x74, 
  0x65, 0x64, 0x2e, 0x00, 0x01, 0x00, 0x00, 0x00, 0x14, 0x00, 0x00, 0x00, 
  0x00, 0x00, 0x0e, 0x00, 0x18, 0x00, 0x14, 0x00, 0x10, 0x00, 0x0c, 0x00, 
  0x08, 0x00, 0x04, 0x00, 0x0e, 0x00, 0x00, 0x00, 0x14, 0x00, 0x00, 0x00, 
  0x1c, 0x00, 0x00, 0x00, 0x24, 0x01, 0x00, 0x00, 0x28, 0x01, 0x00, 0x00, 
  0x2c, 0x01, 0x00, 0x00, 0x04, 0x00, 0x00, 0x00, 0x6d, 0x61, 0x69, 0x6e, 
  0x00, 0x00, 0x00, 0x00, 0x04, 0x00, 0x00, 0x00, 0xcc, 0x00, 0x00, 0x00, 
  0x84, 0x00, 0x00, 0x00, 0x50, 0x00, 0x00, 0x00, 0x14, 0x00, 0x00, 0x00, 
  0x00, 0x00, 0x0e, 0x00, 0x1a, 0x00, 0x14, 0x00, 0x10, 0x00, 0x0c, 0x00, 
  0x0b, 0x00, 0x04, 0x00, 0x0e, 0x00, 0x00, 0x00, 0x1c, 0x00, 0x00, 0x00, 
  0x00, 0x00, 0x00, 0x09, 0x1c, 0x00, 0x00, 0x00, 0x20, 0x00, 0x00, 0x00, 
  0x01, 0x00, 0x00, 0x00, 0x00, 0x00, 0x06, 0x00, 0x08, 0x00, 0x04, 0x00, 
  0x06, 0x00, 0x00, 0x00, 0x00, 0x00, 0x80, 0x3f, 0x01, 0x00, 0x00, 0x00, 
  0x0a, 0x00, 0x00, 0x00, 0x01, 0x00, 0x00, 0x00, 0x09, 0x00, 0x00, 0x00, 
  0x9a, 0xff, 0xff, 0xff, 0x10, 0x00, 0x00, 0x00, 0x00, 0x00, 0x00, 0x08, 
  0x0c, 0x00, 0x00, 0x00, 0x10, 0x00, 0x00, 0x00, 0x40, 0xfb, 0xff, 0xff, 
  0x01, 0x00, 0x00, 0x00, 0x09, 0x00, 0x00, 0x00, 0x03, 0x00, 0x00, 0x00, 
  0x08, 0x00, 0x00, 0x00, 0x03, 0x00, 0x00, 0x00, 0x02, 0x00, 0x00, 0x00, 
  0xca, 0xff, 0xff, 0xff, 0x10, 0x00, 0x00, 0x00, 0x00, 0x00, 0x00, 0x08, 
  0x10, 0x00, 0x00, 0x00, 0x14, 0x00, 0x00, 0x00, 0xba, 0xff, 0xff, 0xff, 
  0x00, 0x00, 0x00, 0x01, 0x01, 0x00, 0x00, 0x00, 0x08, 0x00, 0x00, 0x00, 
  0x03, 0x00, 0x00, 0x00, 0x07, 0x00, 0x00, 0x00, 0x04, 0x00, 0x00, 0x00, 
  0x01, 0x00, 0x00, 0x00, 0x00, 0x00, 0x0e, 0x00, 0x16, 0x00, 0x00, 0x00, 
  0x10, 0x00, 0x0c, 0x00, 0x0b, 0x00, 0x04, 0x00, 0x0e, 0x00, 0x00, 0x00, 
  0x18, 0x00, 0x00, 0x00, 0x00, 0x00, 0x00, 0x08, 0x18, 0x00, 0x00, 0x00, 
  0x1c, 0x00, 0x00, 0x00, 0x00, 0x00, 0x06, 0x00, 0x08, 0x00, 0x07, 0x00, 
  0x06, 0x00, 0x00, 0x00, 0x00, 0x00, 0x00, 0x01, 0x01, 0x00, 0x00, 0x00, 
  0x07, 0x00, 0x00, 0x00, 0x03, 0x00, 0x00, 0x00, 0x00, 0x00, 0x00, 0x00, 
  0x05, 0x00, 0x00, 0x00, 0x06, 0x00, 0x00, 0x00, 0x01, 0x00, 0x00, 0x00, 
  0x0a, 0x00, 0x00, 0x00, 0x01, 0x00, 0x00, 0x00, 0x00, 0x00, 0x00, 0x00, 
  0x0b, 0x00, 0x00, 0x00, 0xe8, 0x03, 0x00, 0x00, 0x94, 0x03, 0x00, 0x00, 
  0x40, 0x03, 0x00, 0x00, 0x00, 0x03, 0x00, 0x00, 0xc0, 0x02, 0x00, 0x00, 
  0x74, 0x02, 0x00, 0x00, 0x10, 0x02, 0x00, 0x00, 0x7c, 0x01, 0x00, 0x00, 
  0xe0, 0x00, 0x00, 0x00, 0x60, 0x00, 0x00, 0x00, 0x04, 0x00, 0x00, 0x00, 
  0x5a, 0xfc, 0xff, 0xff, 0x00, 0x00, 0x00, 0x01, 0x14, 0x00, 0x00, 0x00, 
  0x1c, 0x00, 0x00, 0x00, 0x1c, 0x00, 0x00, 0x00, 0x0b, 0x00, 0x00, 0x00, 
  0x34, 0x00, 0x00, 0x00, 0x02, 0x00, 0x00, 0x00, 0xff, 0xff, 0xff, 0xff, 
  0x03, 0x00, 0x00, 0x00, 0x44, 0xfc, 0xff, 0xff, 0x1b, 0x00, 0x00, 0x00, 
  0x53, 0x74, 0x61, 0x74, 0x65, 0x66, 0x75, 0x6c, 0x50, 0x61, 0x72, 0x74, 
  0x69, 0x74, 0x69, 0x6f, 0x6e, 0x65, 0x64, 0x43, 0x61, 0x6c, 0x6c, 0x5f, 
  0x31, 0x3a, 0x30, 0x00, 0x02, 0x00, 0x00, 0x00, 0x01, 0x00, 0x00, 0x00, 
  0x03, 0x00, 0x00, 0x00, 0xb2, 0xfc, 0xff, 0xff, 0x00, 0x00, 0x00, 0x01, 
  0x14, 0x00, 0x00, 0x00, 0x1c, 0x00, 0x00, 0x00, 0x1c, 0x00, 0x00, 0x00, 
  0x0a, 0x00, 0x00, 0x00, 0x58, 0x00, 0x00, 0x00, 0x02, 0x00, 0x00, 0x00, 
  0xff, 0xff, 0xff, 0xff, 0x03, 0x00, 0x00, 0x00, 0x9c, 0xfc, 0xff, 0xff, 
  0x3c, 0x00, 0x00, 0x00, 0x73, 0x65, 0x71, 0x75, 0x65, 0x6e, 0x74, 0x69, 
  0x61, 0x6c, 0x5f, 0x31, 0x2f, 0x64, 0x65, 0x6e, 0x73, 0x65, 0x5f, 0x32, 
  0x5f, 0x31, 0x2f, 0x4d, 0x61, 0x74, 0x4d, 0x75, 0x6c, 0x3b, 0x73, 0x65, 
  0x71, 0x75, 0x65, 0x6e, 0x74, 0x69, 0x61, 0x6c, 0x5f, 0x31, 0x2f, 0x64, 
  0x65, 0x6e, 0x73, 0x65, 0x5f, 0x32, 0x5f, 0x31, 0x2f, 0x42, 0x69, 0x61, 
  0x73, 0x41, 0x64, 0x64, 0x00, 0x00, 0x00, 0x00, 0x02, 0x00, 0x00, 0x00, 
  0x01, 0x00, 0x00, 0x00, 0x03, 0x00, 0x00, 0x00, 0x2e, 0xfd, 0xff, 0xff, 
  0x00, 0x00, 0x00, 0x01, 0x14, 0x00, 0x00, 0x00, 0x1c, 0x00, 0x00, 0x00, 
  0x1c, 0x00, 0x00, 0x00, 0x09, 0x00, 0x00, 0x00, 0x74, 0x00, 0x00, 0x00, 
  0x02, 0x00, 0x00, 0x00, 0xff, 0xff, 0xff, 0xff, 0x08, 0x00, 0x00, 0x00, 
  0x18, 0xfd, 0xff, 0xff, 0x58, 0x00, 0x00, 0x00, 0x73, 0x65, 0x71, 0x75, 
  0x65, 0x6e, 0x74, 0x69, 0x61, 0x6c, 0x5f, 0x31, 0x2f, 0x64, 0x65, 0x6e, 
  0x73, 0x65, 0x5f, 0x31, 0x5f, 0x32, 0x2f, 0x4d, 0x61, 0x74, 0x4d, 0x75, 
  0x6c, 0x3b, 0x73, 0x65, 0x71, 0x75, 0x65, 0x6e, 0x74, 0x69, 0x61, 0x6c, 
  0x5f, 0x31, 0x2f, 0x64, 0x65, 0x6e, 0x73, 0x65, 0x5f, 0x31, 0x5f, 0x32, 
  0x2f, 0x52, 0x65, 0x6c, 0x75, 0x3b, 0x73, 0x65, 0x71, 0x75, 0x65, 0x6e, 
  0x74, 0x69, 0x61, 0x6c, 0x5f, 0x31, 0x2f, 0x64, 0x65, 0x6e, 0x73, 0x65, 
  0x5f, 0x31, 0x5f, 0x32, 0x2f, 0x42, 0x69, 0x61, 0x73, 0x41, 0x64, 0x64, 
  0x00, 0x00, 0x00, 0x00, 0x02, 0x00, 0x00, 0x00, 0x01, 0x00, 0x00, 0x00, 
  0x08, 0x00, 0x00, 0x00, 0xc6, 0xfd, 0xff, 0xff, 0x00, 0x00, 0x00, 0x01, 
  0x14, 0x00, 0x00, 0x00, 0x1c, 0x00, 0x00, 0x00, 0x1c, 0x00, 0x00, 0x00, 
  0x08, 0x00, 0x00, 0x00, 0x6c, 0x00, 0x00, 0x00, 0x02, 0x00, 0x00, 0x00, 
  0xff, 0xff, 0xff, 0xff, 0x10, 0x00, 0x00, 0x00, 0xb0, 0xfd, 0xff, 0xff, 
  0x52, 0x00, 0x00, 0x00, 0x73, 0x65, 0x71, 0x75, 0x65, 0x6e, 0x74, 0x69, 
  0x61, 0x6c, 0x5f, 0x31, 0x2f, 0x64, 0x65, 0x6e, 0x73, 0x65, 0x5f, 0x31, 
  0x2f, 0x4d, 0x61, 0x74, 0x4d, 0x75, 0x6c, 0x3b, 0x73, 0x65, 0x71, 0x75, 
  0x65, 0x6e, 0x74, 0x69, 0x61, 0x6c, 0x5f, 0x31, 0x2f, 0x64, 0x65, 0x6e, 
  0x73, 0x65, 0x5f, 0x31, 0x2f, 0x52, 0x65, 0x6c, 0x75, 0x3b, 0x73, 0x65, 
  0x71, 0x75, 0x65, 0x6e, 0x74, 0x69, 0x61, 0x6c, 0x5f, 0x31, 0x2f, 0x64, 
  0x65, 0x6e, 0x73, 0x65, 0x5f, 0x31, 0x2f, 0x42, 0x69, 0x61, 0x73, 0x41, 
  0x64, 0x64, 0x00, 0x00, 0x02, 0x00, 0x00, 0x00, 0x01, 0x00, 0x00, 0x00, 
  0x10, 0x00, 0x00, 0x00, 0xa6, 0xfe, 0xff, 0xff, 0x00, 0x00, 0x00, 0x01, 
  0x10, 0x00, 0x00, 0x00, 0x10, 0x00, 0x00, 0x00, 0x07, 0x00, 0x00, 0x00, 
  0x44, 0x00, 0x00, 0x00, 0x30, 0xfe, 0xff, 0xff, 0x36, 0x00, 0x00, 0x00, 
  0x73, 0x65, 0x71, 0x75, 0x65, 0x6e, 0x74, 0x69, 0x61, 0x6c, 0x5f, 0x31, 
  0x2f, 0x64, 0x65, 0x6e, 0x73, 0x65, 0x5f, 0x31, 0x2f, 0x52, 0x65, 0x6c, 
  0x75, 0x3b, 0x73, 0x65, 0x71, 0x75, 0x65, 0x6e, 0x74, 0x69, 0x61, 0x6c, 
  0x5f, 0x31, 0x2f, 0x64, 0x65, 0x6e, 0x73, 0x65, 0x5f, 0x31, 0x2f, 0x42, 
  0x69, 0x61, 0x73, 0x41, 0x64, 0x64, 0x00, 0x00, 0x01, 0x00, 0x00, 0x00, 
  0x10, 0x00, 0x00, 0x00, 0x06, 0xff, 0xff, 0xff, 0x00, 0x00, 0x00, 0x01, 
  0x10, 0x00, 0x00, 0x00, 0x10, 0x00, 0x00, 0x00, 0x06, 0x00, 0x00, 0x00, 
  0x28, 0x00, 0x00, 0x00, 0x90, 0xfe, 0xff, 0xff, 0x1b, 0x00, 0x00, 0x00, 
  0x73, 0x65, 0x71, 0x75, 0x65, 0x6e, 0x74, 0x69, 0x61, 0x6c, 0x5f, 0x31, 
  0x2f, 0x64, 0x65, 0x6e, 0x73, 0x65, 0x5f, 0x31, 0x2f, 0x4d, 0x61, 0x74, 
  0x4d, 0x75, 0x6c, 0x00, 0x02, 0x00, 0x00, 0x00, 0x10, 0x00, 0x00, 0x00, 
  0x04, 0x00, 0x00, 0x00, 0x4e, 0xff, 0xff, 0xff, 0x00, 0x00, 0x00, 0x01, 
  0x10, 0x00, 0x00, 0x00, 0x10, 0x00, 0x00, 0x00, 0x05, 0x00, 0x00, 0x00, 
  0x1c, 0x00, 0x00, 0x00, 0xd8, 0xfe, 0xff, 0xff, 0x0f, 0x00, 0x00, 0x00, 
  0x61, 0x72, 0x69, 0x74, 0x68, 0x2e, 0x63, 0x6f, 0x6e, 0x73, 0x74, 0x61, 
  0x6e, 0x74, 0x33, 0x00, 0x02, 0x00, 0x00, 0x00, 0x08, 0x00, 0x00, 0x00, 
  0x10, 0x00, 0x00, 0x00, 0x8a, 0xff, 0xff, 0xff, 0x00, 0x00, 0x00, 0x01, 
  0x10, 0x00, 0x00, 0x00, 0x10, 0x00, 0x00, 0x00, 0x04, 0x00, 0x00, 0x00, 
  0x1c, 0x00, 0x00, 0x00, 0x14, 0xff, 0xff, 0xff, 0x0f, 0x00, 0x00, 0x00, 
  0x61, 0x72, 0x69, 0x74, 0x68, 0x2e, 0x63, 0x6f, 0x6e, 0x73, 0x74, 0x61, 
  0x6e, 0x74, 0x32, 0x00, 0x02, 0x00, 0x00, 0x00, 0x03, 0x00, 0x00, 0x00, 
  0x08, 0x00, 0x00, 0x00, 0xc6, 0xff, 0xff, 0xff, 0x00, 0x00, 0x00, 0x01, 
  0x10, 0x00, 0x00, 0x00, 0x10, 0x00, 0x00, 0x00, 0x03, 0x00, 0x00, 0x00, 
  0x1c, 0x00, 0x00, 0x00, 0x50, 0xff, 0xff, 0xff, 0x0f, 0x00, 0x00, 0x00, 
  0x61, 0x72, 0x69, 0x74, 0x68, 0x2e, 0x63, 0x6f, 0x6e, 0x73, 0x74, 0x61, 
  0x6e, 0x74, 0x31, 0x00, 0x01, 0x00, 0x00, 0x00, 0x03, 0x00, 0x00, 0x00, 
  0x00, 0x00, 0x16, 0x00, 0x18, 0x00, 0x14, 0x00, 0x00, 0x00, 0x10, 0x00, 
  0x0c, 0x00, 0x08, 0x00, 0x00, 0x00, 0x00, 0x00, 0x00, 0x00, 0x07, 0x00, 
  0x16, 0x00, 0x00, 0x00, 0x00, 0x00, 0x00, 0x01, 0x10, 0x00, 0x00, 0x00, 
  0x10, 0x00, 0x00, 0x00, 0x02, 0x00, 0x00, 0x00, 0x1c, 0x00, 0x00, 0x00, 
  0xa0, 0xff, 0xff, 0xff, 0x0e, 0x00, 0x00, 0x00, 0x61, 0x72, 0x69, 0x74, 
  0x68, 0x2e, 0x63, 0x6f, 0x6e, 0x73, 0x74, 0x61, 0x6e, 0x74, 0x00, 0x00, 
  0x01, 0x00, 0x00, 0x00, 0x08, 0x00, 0x00, 0x00, 0x00, 0x00, 0x16, 0x00, 
  0x1c, 0x00, 0x18, 0x00, 0x00, 0x00, 0x14, 0x00, 0x10, 0x00, 0x0c, 0x00, 
  0x00, 0x00, 0x00, 0x00, 0x08, 0x00, 0x07, 0x00, 0x16, 0x00, 0x00, 0x00, 
  0x00, 0x00, 0x00, 0x01, 0x14, 0x00, 0x00, 0x00, 0x20, 0x00, 0x00, 0x00, 
  0x20, 0x00, 0x00, 0x00, 0x01, 0x00, 0x00, 0x00, 0x3c, 0x00, 0x00, 0x00, 
  0x02, 0x00, 0x00, 0x00, 0xff, 0xff, 0xff, 0xff, 0x04, 0x00, 0x00, 0x00, 
  0x04, 0x00, 0x04, 0x00, 0x04, 0x00, 0x00, 0x00, 0x1e, 0x00, 0x00, 0x00, 
  0x73, 0x65, 0x72, 0x76, 0x69, 0x6e, 0x67, 0x5f, 0x64, 0x65, 0x66, 0x61, 
  0x75, 0x6c, 0x74, 0x5f, 0x6b, 0x65, 0x72, 0x61, 0x73, 0x5f, 0x74, 0x65, 
  0x6e, 0x73, 0x6f, 0x72, 0x3a, 0x30, 0x00, 0x00, 0x02, 0x00, 0x00, 0x00, 
  0x01, 0x00, 0x00, 0x00, 0x04, 0x00, 0x00, 0x00, 0x02, 0x00, 0x00, 0x00, 
  0x20, 0x00, 0x00, 0x00, 0x04, 0x00, 0x00, 0x00, 0xf4, 0xff, 0xff, 0xff, 
  0x19, 0x00, 0x00, 0x00, 0x00, 0x00, 0x00, 0x19, 0x0c, 0x00, 0x0c, 0x00, 
  0x0b, 0x00, 0x00, 0x00, 0x00, 0x00, 0x04, 0x00, 0x0c, 0x00, 0x00, 0x00, 
  0x09, 0x00, 0x00, 0x00, 0x00, 0x00, 0x00, 0x09, 
};
unsigned int stress_model_tflite_len = 3056;
